4F5C
EB53
FD09
03BE
20E5
6D63
D020
E442
B372
EBCA
2147
1340
21BF
5FE5
167B
AFBF
EDFC
2B40
1E0F
103C
E233
EEA0
F7B0
EC13
2332
01EE
3B01
FE30
1D34
D2E3
E1E5
E29F
32E3
60AC
1151
1F11
7D51
00C0
C4AD
4D6A
0D01
D472
3E2D
AFE3
3237
EF1A
3177
FCB6
DB47
B23A
55EE
78B7
100A
211F
6BFF
A72E
30EE
3E1B
F9F1
382E
E313
016F
3512
35ED
D0FC
D2E3
41FC
0DEF
E4DE
0A34
0F52
AEC5

