EBC1
6B53
49D1
DD0C
D013
F036
FD01
B439
F4BF
004F
4D04
03AF
064F
1BE0
2F90
8D00
02AD
E023
2F0C
4F62
8100
2233
FA00
C301
B201
E1D3
0C9C
CAFF
1E31
FE3A
D530
BE3F
7DF6
C450
58BF
04BE
18F2
E287
04B4
B2EF
315B
2FD3
1F4B
112D
195A
7035
84D4
1E20
F4EB
DEC4
0C2E
9E2C
1AE5
033D
DD0A
AD32
00D5
B3FC
FF9F
BF5B
712D
F6ED
1E16
AF46
C211
3EBD
2080
F06F
6CE0
F4C9
D51F
36EC

