9877B
7628D
76EB8
8776A
D5315
58128
17C28
B3A06
C98E0
46A88
8B338
70685
D87B8
888D7
78859
8588A
79828
88A89
83688
0BC91
6A816
A4977
C5948
44587
D5A77
EC870
D51C0
DEF32
4A746
A3487
987AB
78458
87885
13884
8528A
97AAC
F8868
4272D
EB987
78E8A
86975
58694
44879
C8688
7E789
763B9
DE817
A667A
76D08
5A775
8B745
15CF5
9334A
81699
98467
D8179
D883C
ACA87
183AB
2E1DE
A8A84
35882
72896
7C858

