EC5EC
2BE5C
64DA9
A5BC9
F254A
965A5
4ECCC
59D4C
FF3D0
8E989
DF355
ACD6C
03D4C
3D5C3
C4E66
BA438
76FD6
2565E
5D3AA
9C4C5
3E9B6
31B24
0110D
5AB06
10FF3
65D4D
112EC
F2B0F
0EFC1
95292
D657D
6C7C7
755BD
B774C
BC4DA
BD6A5
AB941
BCAD5
D7694
B3B7C
FEE3F
ACB76
42BFC
A6E97
D9455
BC33D
CD0DC
64E44
B5BEE
86D9D
3D46D
6E583
55A40
B93D3
2001E
54DC2
13340
CDDF6
EFDDC
7831C
EDD03
3203C
5DBBD
FCBA2

